<unk>	0
<s>	0
</s>	0
<0x00>	0
<0x01>	0
<0x02>	0
<0x03>	0
<0x04>	0
<0x05>	0
<0x06>	0
<0x07>	0
<0x08>	0
<0x09>	0
<0x0A>	0
<0x0B>	0
<0x0C>	0
<0x0D>	0
<0x0E>	0
<0x0F>	0
<0x10>	0
<0x11>	0
<0x12>	0
<0x13>	0
<0x14>	0
<0x15>	0
<0x16>	0
<0x17>	0
<0x18>	0
<0x19>	0
<0x1A>	0
<0x1B>	0
<0x1C>	0
<0x1D>	0
<0x1E>	0
<0x1F>	0
<0x20>	0
<0x21>	0
<0x22>	0
<0x23>	0
<0x24>	0
<0x25>	0
<0x26>	0
<0x27>	0
<0x28>	0
<0x29>	0
<0x2A>	0
<0x2B>	0
<0x2C>	0
<0x2D>	0
<0x2E>	0
<0x2F>	0
<0x30>	0
<0x31>	0
<0x32>	0
<0x33>	0
<0x34>	0
<0x35>	0
<0x36>	0
<0x37>	0
<0x38>	0
<0x39>	0
<0x3A>	0
<0x3B>	0
<0x3C>	0
<0x3D>	0
<0x3E>	0
<0x3F>	0
<0x40>	0
<0x41>	0
<0x42>	0
<0x43>	0
<0x44>	0
<0x45>	0
<0x46>	0
<0x47>	0
<0x48>	0
<0x49>	0
<0x4A>	0
<0x4B>	0
<0x4C>	0
<0x4D>	0
<0x4E>	0
<0x4F>	0
<0x50>	0
<0x51>	0
<0x52>	0
<0x53>	0
<0x54>	0
<0x55>	0
<0x56>	0
<0x57>	0
<0x58>	0
<0x59>	0
<0x5A>	0
<0x5B>	0
<0x5C>	0
<0x5D>	0
<0x5E>	0
<0x5F>	0
<0x60>	0
<0x61>	0
<0x62>	0
<0x63>	0
<0x64>	0
<0x65>	0
<0x66>	0
<0x67>	0
<0x68>	0
<0x69>	0
<0x6A>	0
<0x6B>	0
<0x6C>	0
<0x6D>	0
<0x6E>	0
<0x6F>	0
<0x70>	0
<0x71>	0
<0x72>	0
<0x73>	0
<0x74>	0
<0x75>	0
<0x76>	0
<0x77>	0
<0x78>	0
<0x79>	0
<0x7A>	0
<0x7B>	0
<0x7C>	0
<0x7D>	0
<0x7E>	0
<0x7F>	0
<0x80>	0
<0x81>	0
<0x82>	0
<0x83>	0
<0x84>	0
<0x85>	0
<0x86>	0
<0x87>	0
<0x88>	0
<0x89>	0
<0x8A>	0
<0x8B>	0
<0x8C>	0
<0x8D>	0
<0x8E>	0
<0x8F>	0
<0x90>	0
<0x91>	0
<0x92>	0
<0x93>	0
<0x94>	0
<0x95>	0
<0x96>	0
<0x97>	0
<0x98>	0
<0x99>	0
<0x9A>	0
<0x9B>	0
<0x9C>	0
<0x9D>	0
<0x9E>	0
<0x9F>	0
<0xA0>	0
<0xA1>	0
<0xA2>	0
<0xA3>	0
<0xA4>	0
<0xA5>	0
<0xA6>	0
<0xA7>	0
<0xA8>	0
<0xA9>	0
<0xAA>	0
<0xAB>	0
<0xAC>	0
<0xAD>	0
<0xAE>	0
<0xAF>	0
<0xB0>	0
<0xB1>	0
<0xB2>	0
<0xB3>	0
<0xB4>	0
<0xB5>	0
<0xB6>	0
<0xB7>	0
<0xB8>	0
<0xB9>	0
<0xBA>	0
<0xBB>	0
<0xBC>	0
<0xBD>	0
<0xBE>	0
<0xBF>	0
<0xC0>	0
<0xC1>	0
<0xC2>	0
<0xC3>	0
<0xC4>	0
<0xC5>	0
<0xC6>	0
<0xC7>	0
<0xC8>	0
<0xC9>	0
<0xCA>	0
<0xCB>	0
<0xCC>	0
<0xCD>	0
<0xCE>	0
<0xCF>	0
<0xD0>	0
<0xD1>	0
<0xD2>	0
<0xD3>	0
<0xD4>	0
<0xD5>	0
<0xD6>	0
<0xD7>	0
<0xD8>	0
<0xD9>	0
<0xDA>	0
<0xDB>	0
<0xDC>	0
<0xDD>	0
<0xDE>	0
<0xDF>	0
<0xE0>	0
<0xE1>	0
<0xE2>	0
<0xE3>	0
<0xE4>	0
<0xE5>	0
<0xE6>	0
<0xE7>	0
<0xE8>	0
<0xE9>	0
<0xEA>	0
<0xEB>	0
<0xEC>	0
<0xED>	0
<0xEE>	0
<0xEF>	0
<0xF0>	0
<0xF1>	0
<0xF2>	0
<0xF3>	0
<0xF4>	0
<0xF5>	0
<0xF6>	0
<0xF7>	0
<0xF8>	0
<0xF9>	0
<0xFA>	0
<0xFB>	0
<0xFC>	0
<0xFD>	0
<0xFE>	0
<0xFF>	0
wa	-0
na	-1
ka	-2
▁wa	-3
▁m	-4
li	-5
ya	-6
ha	-7
ku	-8
ni	-9
ri	-10
ki	-11
▁W	-12
▁ya	-13
▁Wa	-14
▁wana	-15
ji	-16
ta	-17
to	-18
▁s	-19
zi	-20
ba	-21
za	-22
ma	-23
▁M	-24
hi	-25
▁a	-26
▁ka	-27
tu	-28
▁ma	-29
hu	-30
la	-31
ng	-32
sha	-33
ti	-34
vi	-35
▁ki	-36
an	-37
fu	-38
me	-39
bu	-40
di	-41
▁i	-42
cha	-43
si	-44
▁vi	-45
le	-46
sa	-47
▁u	-48
ja	-49
▁za	-50
ra	-51
▁k	-52
mba	-53
da	-54
ny	-55
fan	-56
fun	-57
kuwa	-58
▁shu	-59
fanya	-60
eng	-61
▁ku	-62
toto	-63
▁cha	-64
▁kwa	-65
▁kazi	-66
pi	-67
wi	-68
zu	-69
▁Ma	-70
▁mi	-71
▁na	-72
▁ni	-73
rika	-74
tika	-75
zuri	-76
▁shule	-77
bi	-78
te	-79
vu	-80
▁N	-81
lim	-82
lima	-83
▁ina	-84
▁katika	-85
do	-86
go	-87
mi	-88
pa	-89
ana	-90
▁ba	-91
▁Watoto	-92
is	-93
su	-94
▁A	-95
▁S	-96
▁n	-97
▁w	-98
idi	-99
kwi	-100
engi	-101
jiji	-102
funzi	-103
▁Wana	-104
▁Watu	-105
▁yana	-106
kwisha	-107
Vi	-108
en	-109
fa	-110
fi	-111
ke	-112
▁D	-113
▁p	-114
chu	-115
nye	-116
ote	-117
pya	-118
vua	-119
▁Vi	-120
▁ja	-121
▁la	-122
▁ny	-123
▁si	-124
buhi	-125
kula	-126
tabu	-127
umba	-128
▁ana	-129
▁asu	-130
erika	-131
▁mpya	-132
▁sana	-133
▁wame	-134
likuwa	-135
▁wengi	-136
erikali	-137
▁vizuri	-138
▁asubuhi	-139
be	-140
he	-141
ko	-142
mu	-143
os	-144
so	-145
▁H	-146
▁K	-147
▁T	-148
▁v	-149
bwa	-150
chi	-151
kta	-152
ngi	-153
ria	-154
▁Mi	-155
▁Ni	-156
▁bi	-157
▁ha	-158
▁li	-159
▁ta	-160
▁zi	-161
jeng	-162
ospi	-163
tali	-164
▁ime	-165
▁vya	-166
▁kila	-167
▁siku	-168
▁wali	-169
▁watu	-170
ospitali	-171
▁Serikali	-172
▁Wanafunzi	-173
ge	-174
mo	-175
nj	-176
po	-177
re	-178
we	-179
ye	-180
yo	-181
ada	-182
kua	-183
mbe	-184
▁Af	-185
▁Da	-186
▁so	-187
▁tu	-188
badi	-189
dogo	-190
gonj	-191
hiri	-192
idia	-193
ishi	-194
limu	-195
sika	-196
siku	-197
sili	-198
situ	-199
soma	-200
taka	-201
toka	-202
vuvi	-203
kubwa	-204
▁bado	-205
▁jana	-206
▁zina	-207
badili	-208
gonjwa	-209
kulima	-210
nyesha	-211
saidia	-212
umbani	-213
▁usiku	-214
▁zaidi	-215
▁Afrika	-216
▁kutoka	-217
▁masika	-218
▁vijiji	-219
▁chakula	-220
▁shuleni	-221
▁nyumbani	-222
▁wanaishi	-223
▁wanafanya	-224
▁wamekwisha	-225
at	-226
bo	-227
de	-228
es	-229
pe	-230
ro	-231
ru	-232
ug	-233
zo	-234
▁B	-235
▁C	-236
▁J	-237
▁h	-238
▁z	-239
aka	-240
ama	-241
bia	-242
che	-243
dii	-244
dwa	-245
esa	-246
ghu	-247
ifa	-248
kuu	-249
kwa	-250
leo	-251
mea	-252
mii	-253
nga	-254
nia	-255
oli	-256
zao	-257
zwa	-258
▁Ha	-259
▁Tu	-260
▁hi	-261
▁wi	-262
andi	-263
firi	-264
fura	-265
hani	-266
hili	-267
huru	-268
imba	-269
iswa	-270
kama	-271
kazi	-272
kiwa	-273
koni	-274
limo	-275
liwa	-276
moja	-277
naye	-278
ngwa	-279
ombe	-280
pema	-281
raka	-282
refu	-283
ribu	-284
rini	-285
sani	-286
sima	-287
tege	-288
tibu	-289
ugha	-290
wali	-291
wani	-292
wezi	-293
▁Cha	-294
▁Mto	-295
▁Mwa	-296
▁ata	-297
▁mas	-298
▁msa	-299
▁mto	-300
▁mwa	-301
▁nyi	-302
▁sha	-303
▁una	-304
▁wao	-305
▁yao	-306
▁zao	-307
amaki	-308
cheza	-309
chumi	-310
disha	-311
funza	-312
ghuli	-313
kiana	-314
ktari	-315
laria	-316
mbani	-317
shara	-318
shiri	-319
▁Mvua	-320
▁alim	-321
▁anam	-322
▁bara	-323
▁chai	-324
▁lina	-325
▁mada	-326
▁maen	-327
▁maji	-328
▁miji	-329
▁miti	-330
▁mvua	-331
▁nchi	-332
▁niki	-333
▁pesa	-334
▁tatu	-335
▁vina	-336
▁wake	-337
▁zote	-338
jengwa	-339
pokuwa	-340
safiri	-341
shamba	-342
takuwa	-343
▁Kiswa	-344
▁Mazao	-345
▁asili	-346
▁bidii	-347
▁jamii	-348
▁kikuu	-349
▁mrefu	-350
▁mwezi	-351
▁ndogo	-352
▁pwani	-353
▁sanaa	-354
▁taifa	-355
▁uhuru	-356
chungwa	-357
jifunza	-358
kifanya	-359
tegemea	-360
▁Vijiji	-361
▁Vitabu	-362
▁haraka	-363
▁kilimo	-364
▁kitabu	-365
▁kizuri	-366
▁mapema	-367
▁msaada	-368
▁sokoni	-369
▁uchumi	-370
▁wanaku	-371
▁watoto	-372
fundisha	-373
mekwisha	-374
▁Chakula	-375
▁Mwalimu	-376
▁Wafanya	-377
▁kufanya	-378
▁malaria	-379
▁mgonjwa	-380
badilisha	-381
▁Nilikuwa	-382
▁Wakulima	-383
▁Walikuwa	-384
▁kutokana	-385
▁mitihani	-386
▁shambani	-387
▁shughuli	-388
▁vijijini	-389
▁wanaimba	-390
▁wanasoma	-391
shirikiana	-392
takapokuwa	-393
▁Hospitali	-394
▁Kiswahili	-395
▁hospitali	-396
▁imebadilisha	-397
▁wanashirikiana	-398
Ga	-399
Ra	-400
ai	-401
am	-402
ch	-403
du	-404
ea	-405
ee	-406
ek	-407
em	-408
eo	-409
ga	-410
ho	-411
ia	-412
je	-413
lo	-414
no	-415
on	-416
sh	-417
yi	-418
▁E	-419
▁L	-420
▁P	-421
▁U	-422
▁j	-423
▁l	-424
▁y	-425
aba	-426
afi	-427
ala	-428
ano	-429
bla	-430
bua	-431
daa	-432
dha	-433
dri	-434
faa	-435
fya	-436
jao	-437
jia	-438
jio	-439
kaa	-440
kia	-441
lin	-442
liv	-443
mbo	-444
mia	-445
nda	-446
ndi	-447
nge	-448
nja	-449
nzo	-450
oat	-451
oja	-452
oto	-453
pan	-454
pii	-455
san	-456
sem	-457
she	-458
sum	-459
tea	-460
toa	-461
uhi	-462
uka	-463
uma	-464
ume	-465
uza	-466
wen	-467
zee	-468
▁Do	-469
▁Ga	-470
▁Ki	-471
▁Ng	-472
▁Ny	-473
▁Ra	-474
▁We	-475
▁ch	-476
▁da	-477
▁du	-478
▁es	-479
▁he	-480
▁in	-481
▁ng	-482
▁pa	-483
▁po	-484
▁se	-485
airo	-486
anga	-487
anza	-488
bali	-489
bara	-490
bati	-491
bele	-492
bore	-493
chuo	-494
damu	-495
dege	-496
dhaa	-497
doka	-498
ekno	-499
enda	-500
enya	-501
esho	-502
faka	-503
fani	-504
fika	-505
fuga	-506
fugo	-507
fuka	-508
hita	-509
hutu	-510
jaza	-511
jian	-512
jibu	-513
jifi	-514
kati	-515
kini	-516
laya	-517
liko	-518
liyo	-519
liza	-520
lizo	-521
mani	-522
meme	-523
mika	-524
nchi	-525
ngia	-526
nywa	-527
paka	-528
pato	-529
pili	-530
pira	-531
rasa	-532
riki	-533
shwa	-534
somo	-535
tamu	-536
taon	-537
umbe	-538
uzwa	-539
vina	-540
waja	-541
wake	-542
wale	-543
wizi	-544
yika	-545
zake	-546
zazi	-547
ziwa	-548
▁Bia	-549
▁Dar	-550
▁Mbu	-551
▁abi	-552
▁ada	-553
▁ali	-554
▁chi	-555
▁ita	-556
▁jio	-557
▁kwe	-558
▁leo	-559
▁mji	-560
▁mku	-561
▁mti	-562
▁nje	-563
alaam	-564
chana	-565
deleo	-566
jenga	-567
kuaji	-568
livyo	-569
lojia	-570
mbaza	-571
mecha	-572
napii	-573
nayem	-574
ngira	-575
niani	-576
njaro	-577
nyeji	-578
oathi	-579
olisi	-580
pikia	-581
pindi	-582
sanii	-583
semwa	-584
tunda	-585
uhimu	-586
▁Baba	-587
▁Dawa	-588
▁Duka	-589
▁Gari	-590
▁Hatu	-591
▁Joto	-592
▁Juma	-593
▁Mama	-594
▁Mazi	-595
▁Miji	-596
▁Miti	-597
▁Mzee	-598
▁Nile	-599
▁Rais	-600
▁Tuli	-601
▁afya	-602
▁baha	-603
▁bina	-604
▁chuo	-605
▁fura	-606
▁hali	-607
▁hewa	-608
▁hisa	-609
▁hiyo	-610
▁kani	-611
▁kati	-612
▁kuku	-613
▁kula	-614
▁kumi	-615
▁lipa	-616
▁lipo	-617
▁maha	-618
▁mawa	-619
▁moja	-620
▁mwen	-621
▁safi	-622
▁simu	-623
▁soma	-624
▁tume	-625
▁ujao	-626
▁wata	-627
▁wiki	-628
▁wote	-629
▁yake	-630
▁yote	-631
airobi	-632
andika	-633
angazi	-634
athiri	-635
changa	-636
fugaji	-637
funzwa	-638
furahi	-639
hitaji	-640
jaribu	-641
jengea	-642
kamata	-643
lindwa	-644
pandwa	-645
patika	-646
sheria	-647
simama	-648
situni	-649
sumbua	-650
takaye	-651
tumika	-652
walipa	-653
▁Dokta	-654
▁Elimu	-655
▁Kenya	-656
▁Lugha	-657
▁Masha	-658
▁Miaka	-659
▁Mmoja	-660
▁Msitu	-661
▁Ndege	-662
▁Tanza	-663
▁Tekno	-664
▁Uvuvi	-665
▁Wange	-666
▁aliwa	-667
▁amani	-668
▁baada	-669
▁chini	-670
▁chote	-671
▁fanya	-672
▁iliwa	-673
▁iliyo	-674
▁insha	-675
▁jioni	-676
▁jumba	-677
▁kabla	-678
▁kadri	-679
▁kesho	-680
▁kiume	-681
▁kubwa	-682
▁lugha	-683
▁mbali	-684
▁mbele	-685
▁mengi	-686
▁miaka	-687
▁mingi	-688
▁mlima	-689
▁mpaka	-690
▁mpira	-691
▁msitu	-692
▁mtoni	-693
▁mtoto	-694
▁mwaka	-695
▁mwizi	-696
▁mzuri	-697
▁nzuri	-698
▁sekta	-699
▁umeme	-700
▁uvuvi	-701
▁walim	-702
▁wanao	-703
andikwa	-704
boresha	-705
chafuka	-706
changia	-707
chezaji	-708
hutubia	-709
jiandaa	-710
jificha	-711
olishwa	-712
sambaza	-713
sanyika	-714
siliano	-715
simamia	-716
waletea	-717
▁Anayem	-718
▁Hawaja	-719
▁Kilima	-720
▁Makazi	-721
▁Mifugo	-722
▁Nyumba	-723
▁Polisi	-724
▁Salaam	-725
▁Samaki	-726
▁Viumbe	-727
▁Wavuvi	-728
▁Wazazi	-729
▁abiria	-730
▁alimpa	-731
▁barani	-732
▁bidhaa	-733
▁chanzo	-734
▁darasa	-735
▁furaha	-736
▁havina	-737
▁inakua	-738
▁inatoa	-739
▁karibu	-740
▁kidogo	-741
▁kijiji	-742
▁kitamu	-743
▁kuliko	-744
▁kwenye	-745
▁madawa	-746
▁maeneo	-747
▁maliza	-748
▁mapato	-749
▁masomo	-750
▁maziwa	-751
▁mchana	-752
▁mijini	-753
▁milima	-754
▁mkubwa	-755
▁muhimu	-756
▁nafaka	-757
▁nyimbo	-758
▁nyingi	-759
▁pamoja	-760
▁porini	-761
▁samaki	-762
▁tutaon	-763
▁ukuaji	-764
▁vikiwa	-765
▁vitabu	-766
▁wakati	-767
▁wilaya	-768
▁zilizo	-769
badiliko	-770
biashara	-771
fanikiwa	-772
mechakaa	-773
napiikwa	-774
patikana	-775
▁Atakuwa	-776
▁Daktari	-777
▁Matunda	-778
▁Mkulima	-779
▁Nairobi	-780
▁Wasanii	-781
▁Wenyeji	-782
▁alijibu	-783
▁duniani	-784
▁imekuwa	-785
▁kipindi	-786
▁maskini	-787
▁maswali	-788
▁mikubwa	-789
▁mwanaye	-790
▁ugonjwa	-791
▁vikubwa	-792
▁vilivyo	-793
▁walivua	-794
▁wanakua	-795
▁wanauza	-796
▁zinafaa	-797
oathirika	-798
▁Biashara	-799
▁Jumapili	-800
▁Mashamba	-801
▁Nitakaye	-802
▁Tanzania	-803
▁Tulikuwa	-804
▁Wanawake	-805
▁Watakuwa	-806
▁alimtibu	-807
▁anafanya	-808
▁anamtibu	-809
▁baharini	-810
▁barabara	-811
▁binadamu	-812
▁hisabati	-813
▁inasemwa	-814
▁itajenga	-815
▁kanisani	-816
▁katikati	-817
▁kiangazi	-818
▁mahakama	-819
▁mashamba	-820
▁misituni	-821
▁mkufunzi	-822
▁mwenzake	-823
▁nikisoma	-824
▁serikali	-825
▁tumefika	-826
▁wachanga	-827
▁wafugaji	-828
▁walilima	-829
▁wanaenda	-830
▁wanalima	-831
▁wananchi	-832
▁yanajaza	-833
▁yanauzwa	-834
▁Amekwisha	-835
▁Mashariki	-836
▁Mazingira	-837
▁Wachezaji	-838
▁Wangekuwa	-839
▁amekwisha	-840
▁anampikia	-841
▁imenyesha	-842
▁inahitaji	-843
▁inajengea	-844
▁inajengwa	-845
▁inanyesha	-846
▁madaktari	-847
▁maendeleo	-848
▁tukifanya	-849
▁unalindwa	-850
▁wakifanya	-851
▁wanacheza	-852
▁wanafunzi	-853
▁Mabadiliko	-854
▁Teknolojia	-855
▁Tulisafiri	-856
▁Wanasheria	-857
▁anasimamia	-858
▁atahutubia	-859
▁inachungwa	-860
▁kinapiikwa	-861
▁kukusaidia	-862
▁linasafiri	-863
▁linasumbua	-864
▁nikijaribu	-865
▁tutaondoka	-866
▁vimechakaa	-867
▁walisimama	-868
▁wanaandika	-869
▁wanafunzwa	-870
▁wanakunywa	-871
▁wanawalipa	-872
▁watafurahi	-873
▁yanaathiri	-874
▁zinatumika	-875
▁Kilimanjaro	-876
▁Wafanyakazi	-877
▁anafundisha	-878
▁atafanikiwa	-879
▁hospitalini	-880
▁iliwasaidia	-881
▁iliyopandwa	-882
▁mawasiliano	-883
▁vinategemea	-884
▁walimkamata	-885
▁wamejificha	-886
▁wamejifunza	-887
▁wanachungwa	-888
▁wanajiandaa	-889
▁wanajifunza	-890
▁wanaolishwa	-891
▁wanaonyesha	-892
▁wanasambaza	-893
▁yanaboresha	-894
▁yanachafuka	-895
▁yanategemea	-896
▁zinachangia	-897
▁Anayemsaidia	-898
▁Hawajakwisha	-899
▁Watakapokuwa	-900
▁wanapatikana	-901
▁zilizojengwa	-902
▁aliwafundisha	-903
▁walioathirika	-904
▁wanakusanyika	-905
▁Hatutakapokuwa	-906
▁vilivyoandikwa	-907
▁Nitakayewaletea	-908
▁Wafanyabiashara	-909
Af	-910
Am	-911
An	-912
At	-913
Ba	-914
Bi	-915
Ch	-916
Da	-917
Do	-918
Du	-919
El	-920
Ha	-921
Ho	-922
Jo	-923
Ju	-924
Ke	-925
Ki	-926
Lu	-927
Ma	-928
Mb	-929
Mi	-930
Mk	-931
Mm	-932
Ms	-933
Mt	-934
Mv	-935
Mw	-936
Mz	-937
Na	-938
Nd	-939
Ng	-940
Ni	-941
Ny	-942
Po	-943
Sa	-944
Se	-945
Ta	-946
Te	-947
Uv	-948
Wa	-949
We	-950
aa	-951
ab	-952
ac	-953
ae	-954
af	-955
aj	-956
ak	-957
al	-958
ap	-959
ar	-960
as	-961
au	-962
av	-963
aw	-964
ay	-965
az	-966
bl	-967
dh	-968
dr	-969
dw	-970
eb	-971
ec	-972
ef	-973
eg	-974
ej	-975
el	-976
er	-977
et	-978
ew	-979
ez	-980
fr	-981
fy	-982
gh	-983
gi	-984
gw	-985
hw	-986
ib	-987
ic	-988
id	-989
if	-990
ih	-991
ii	-992
ij	-993
il	-994
in	-995
io	-996
ip	-997
ir	-998
it	-999
ad	-1000
im	-1001
iu	-1002
iv	-1003
iw	-1004
iy	-1005
iz	-1006
ju	-1007
jw	-1008
kn	-1009
kt	-1010
kw	-1011
lu	-1012
mb	-1013
mc	-1014
mg	-1015
mj	-1016
mk	-1017
ml	-1018
mp	-1019
mr	-1020
ms	-1021
mt	-1022
mw	-1023
mz	-1024
nc	-1025
nd	-1026
ne	-1027
ns	-1028
nz	-1029
oa	-1030
ob	-1031
og	-1032
oj	-1033
ok	-1034
ol	-1035
om	-1036
op	-1037
or	-1038
ot	-1039
pw	-1040
py	-1041
se	-1042
sk	-1043
sp	-1044
sw	-1045
th	-1046
ua	-1047
ub	-1048
uc	-1049
uf	-1050
uh	-1051
uj	-1052
uk	-1053
ul	-1054
um	-1055
un	-1056
uo	-1057
ur	-1058
us	-1059
ut	-1060
uu	-1061
uv	-1062
uw	-1063
uz	-1064
vy	-1065
yu	-1066
yw	-1067
ze	-1068
zw	-1069
▁G	-1070
▁R	-1071
▁V	-1072
▁b	-1073
▁c	-1074
▁d	-1075
▁e	-1076
▁f	-1077
▁t	-1078
Ame	-1079
Ana	-1080
Ata	-1081
Cha	-1082
Eli	-1083
Hos	-1084
Ken	-1085
Kis	-1086
Lug	-1087
Mku	-1088
Mto	-1089
Mwa	-1090
Tan	-1091
Uvu	-1092
Viu	-1093
aha	-1094
ahi	-1095
ais	-1096
aji	-1097
aki	-1098
aku	-1099
Tu	-1100
ah	-1101
ao	-1102
bw	-1103
ik	-1104
mv	-1105
wo	-1106
ali	-1107
and	-1108
ang	-1109
ani	-1110
any	-1111
ara	-1112
ari	-1113
asa	-1114
ata	-1115
ati	-1116
ato	-1117
atu	-1118
awa	-1119
aya	-1120
aza	-1121
azi	-1122
baa	-1123
bad	-1124
bar	-1125
bat	-1126
baz	-1127
bid	-1128
dak	-1129
dam	-1130
dia	-1131
dik	-1132
dog	-1133
eba	-1134
efu	-1135
ege	-1136
eji	-1137
ekn	-1138
eku	-1139
ele	-1140
ema	-1141
eme	-1142
end	-1143
ene	-1144
eni	-1145
eny	-1146
eri	-1147
esh	-1148
ewa	-1149
eza	-1150
ezi	-1151
fri	-1152
fug	-1153
fur	-1154
gha	-1155
gon	-1156
gwa	-1157
haa	-1158
haf	-1159
hai	-1160
hak	-1161
ham	-1162
han	-1163
har	-1164
hav	-1165
him	-1166
his	-1167
hiy	-1168
hos	-1169
hug	-1170
hul	-1171
hum	-1172
hun	-1173
huo	-1174
hur	-1175
hwa	-1176
ifu	-1177
iha	-1178
iji	-1179
ika	-1180
iki	-1181
iku	-1182
ila	-1183
ile	-1184
ili	-1185
ima	-1186
ime	-1187
ina	-1188
ing	-1189
ini	-1190
ira	-1191
iri	-1192
iro	-1193
isi	-1194
ita	-1195
iti	-1196
itu	-1197
iwa	-1198
izi	-1199
jak	-1200
jam	-1201
jar	-1202
jib	-1203
jif	-1204
jij	-1205
jwa	-1206
kab	-1207
kad	-1208
kal	-1209
kam	-1210
kan	-1211
kap	-1212
kar	-1213
kat	-1214
kay	-1215
kaz	-1216
kid	-1217
kif	-1218
kij	-1219
kil	-1220
kip	-1221
kis	-1222
kit	-1223
kiu	-1224
kiz	-1225
kub	-1226
kuf	-1227
kuk	-1228
kul	-1229
kum	-1230
kun	-1231
kus	-1232
kut	-1233
laa	-1234
let	-1235
lia	-1236
lij	-1237
lik	-1238
lil	-1239
lio	-1240
lip	-1241
lis	-1242
liy	-1243
liz	-1244
lug	-1245
mam	-1246
man	-1247
map	-1248
mbu	-1249
mec	-1250
mef	-1251
mek	-1252
mem	-1253
men	-1254
mka	-1255
mpi	-1256
msa	-1257
mti	-1258
mwa	-1259
naa	-1260
nab	-1261
nac	-1262
nad	-1263
nae	-1264
naf	-1265
nah	-1266
nai	-1267
naj	-1268
nak	-1269
nal	-1270
nam	-1271
nan	-1272
nao	-1273
nap	-1274
nas	-1275
nat	-1276
nau	-1277
nay	-1278
ndo	-1279
nii	-1280
nik	-1281
nis	-1282
nya	-1283
nyi	-1284
nyu	-1285
nza	-1286
nzi	-1287
nzu	-1288
oan	-1289
obi	-1290
oji	-1291
oka	-1292
oko	-1293
oku	-1294
olo	-1295
oma	-1296
oni	-1297
ony	-1298
ore	-1299
ori	-1300
pam	-1301
pin	-1302
pwa	-1303
rib	-1304
rik	-1305
saa	-1306
saf	-1307
sai	-1308
sam	-1309
shi	-1310
ski	-1311
som	-1312
spi	-1313
swa	-1314
tab	-1315
taf	-1316
tah	-1317
tai	-1318
taj	-1319
tam	-1320
tao	-1321
tat	-1322
teg	-1323
thi	-1324
tib	-1325
tot	-1326
tub	-1327
tum	-1328
tun	-1329
ubu	-1330
uhu	-1331
uki	-1332
uku	-1333
uli	-1334
una	-1335
uni	-1336
uri	-1337
usi	-1338
uta	-1339
utu	-1340
uvi	-1341
uwa	-1342
vim	-1343
viz	-1344
vya	-1345
vyo	-1346
wac	-1347
waf	-1348
wah	-1349
waj	-1350
wak	-1351
wal	-1352
wam	-1353
wan	-1354
wao	-1355
was	-1356
wat	-1357
yab	-1358
yak	-1359
yao	-1360
yem	-1361
yop	-1362
ywa	-1363
zai	-1364
zak	-1365
zin	-1366
▁Ba	-1367
▁Bi	-1368
▁Du	-1369
▁Jo	-1370
▁Ju	-1371
▁Mb	-1372
▁Mm	-1373
▁Ms	-1374
▁Mv	-1375
▁Mz	-1376
▁Na	-1377
▁Nd	-1378
▁Sa	-1379
▁Se	-1380
▁Te	-1381
▁ab	-1382
▁ad	-1383
▁af	-1384
▁am	-1385
▁as	-1386
▁fu	-1387
▁ji	-1388
▁ke	-1389
▁kw	-1390
▁le	-1391
▁mb	-1392
▁mc	-1393
▁me	-1394
▁mg	-1395
▁mj	-1396
▁mk	-1397
▁ml	-1398
▁mo	-1399
▁mp	-1400
▁mr	-1401
▁ms	-1402
▁mt	-1403
▁mu	-1404
▁mv	-1405
▁mw	-1406
▁mz	-1407
▁nc	-1408
▁nj	-1409
▁pe	-1410
▁sa	-1411
▁sh	-1412
▁uc	-1413
▁ug	-1414
▁uj	-1415
▁uv	-1416
▁wo	-1417
Elim	-1418
Gari	-1419
Poli	-1420
Rais	-1421
Vita	-1422
akta	-1423
anaa	-1424
anda	-1425
anya	-1426
anyi	-1427
asha	-1428
athi	-1429
bado	-1430
baha	-1431
bani	-1432
baza	-1433
bidi	-1434
bina	-1435
biri	-1436
chai	-1437
chan	-1438
dara	-1439
dawa	-1440
dele	-1441
dika	-1442
dili	-1443
ekta	-1444
emwa	-1445
ende	-1446
enga	-1447
enge	-1448
enye	-1449
enza	-1450
esha	-1451
funz	-1452
gaji	-1453
geme	-1454
hafu	-1455
haka	-1456
haku	-1457
hali	-1458
hana	-1459
hang	-1460
hara	-1461
hari	-1462
havi	-1463
heri	-1464
hewa	-1465
heza	-1466
himu	-1467
hini	-1468
hisa	-1469
hiyo	-1470
hote	-1471
hule	-1472
huli	-1473
humi	-1474
hung	-1475
icha	-1476
ikwa	-1477
ingi	-1478
isha	-1479
jami	-1480
jana	-1481
jari	-1482
jaro	-1483
jifu	-1484
jini	-1485
kali	-1486
kana	-1487
kani	-1488
kapo	-1489
kari	-1490
kaye	-1491
kija	-1492
kiji	-1493
kiku	-1494
kila	-1495
kili	-1496
kina	-1497
kiso	-1498
kita	-1499
kufu	-1500
kuku	-1501
kuli	-1502
kuny	-1503
kusa	-1504
kuto	-1505
laam	-1506
lari	-1507
leni	-1508
lete	-1509
lian	-1510
liji	-1511
liku	-1512
lili	-1513
limp	-1514
lina	-1515
lini	-1516
lipa	-1517
lisa	-1518
lisi	-1519
livu	-1520
loji	-1521
maki	-1522
mama	-1523
mami	-1524
mapi	-1525
mata	-1526
mbua	-1527
meba	-1528
mefi	-1529
meji	-1530
meku	-1531
meny	-1532
nada	-1533
nafa	-1534
nafu	-1535
nahi	-1536
naja	-1537
naku	-1538
nali	-1539
nany	-1540
napi	-1541
nasa	-1542
nasi	-1543
nasu	-1544
nate	-1545
nato	-1546
natu	-1547
nawa	-1548
ndwa	-1549
niki	-1550
nisa	-1551
njwa	-1552
nolo	-1553
nsha	-1554
okta	-1555
olis	-1556
ondo	-1557
onye	-1558
pamo	-1559
piki	-1560
pita	-1561
raba	-1562
raha	-1563
rahi	-1564
rani	-1565
robi	-1566
saba	-1567
safi	-1568
sham	-1569
shar	-1570
subu	-1571
tafa	-1572
tafu	-1573
tahu	-1574
taji	-1575
taku	-1576
tari	-1577
tatu	-1578
tiha	-1579
toni	-1580
tubi	-1581
tuki	-1582
tume	-1583
tumi	-1584
tuni	-1585
tuta	-1586
unia	-1587
viji	-1588
viki	-1589
viku	-1590
vili	-1591
vime	-1592
vita	-1593
wafu	-1594
wahi	-1595
waka	-1596
wana	-1597
wasa	-1598
wasi	-1599
weng	-1600
wiki	-1601
wila	-1602
yaka	-1603
yana	-1604
yewa	-1605
yoan	-1606
yote	-1607
zaji	-1608
zani	-1609
zili	-1610
zina	-1611
zing	-1612
zote	-1613
▁Ame	-1614
▁Ana	-1615
▁Ata	-1616
▁Hos	-1617
▁Ken	-1618
▁Kis	-1619
▁Mia	-1620
▁Mku	-1621
▁Mmo	-1622
▁Msi	-1623
▁Mvu	-1624
▁Nai	-1625
▁Nde	-1626
▁Tan	-1627
▁Tek	-1628
▁Viu	-1629
▁Wac	-1630
▁Waf	-1631
▁Wan	-1632
▁Was	-1633
▁Wat	-1634
▁Wav	-1635
▁Waz	-1636
▁ama	-1637
▁ame	-1638
▁asi	-1639
▁baa	-1640
▁bid	-1641
▁chu	-1642
▁fan	-1643
▁ili	-1644
▁kab	-1645
▁kad	-1646
▁kat	-1647
▁kes	-1648
▁kia	-1649
▁kid	-1650
▁kip	-1651
▁kiu	-1652
▁kiz	-1653
▁kub	-1654
▁kum	-1655
▁lip	-1656
▁mad	-1657
▁mae	-1658
▁mal	-1659
▁map	-1660
▁mba	-1661
▁mbe	-1662
▁mgo	-1663
▁mia	-1664
▁mli	-1665
▁mpa	-1666
▁mpi	-1667
▁mre	-1668
▁msi	-1669
▁mvu	-1670
▁mwe	-1671
▁mwi	-1672
▁mzu	-1673
▁naf	-1674
▁ndo	-1675
▁nyu	-1676
▁pwa	-1677
▁sim	-1678
▁tai	-1679
▁ugo	-1680
▁uhu	-1681
▁uja	-1682
▁uku	-1683
▁ume	-1684
▁usi	-1685
▁uvu	-1686
▁viz	-1687
▁wac	-1688
▁waf	-1689
▁wak	-1690
▁wal	-1691
▁wam	-1692
▁wat	-1693
▁yak	-1694
▁zai	-1695
Elimu	-1696
Lugha	-1697
Uvuvi	-1698
andaa	-1699
andwa	-1700
atika	-1701
biria	-1702
chafu	-1703
chaka	-1704
chaku	-1705
chang	-1706
chini	-1707
chote	-1708
chung	-1709
dakta	-1710
dikwa	-1711
dunia	-1712
ekuwa	-1713
engwa	-1714
ficha	-1715
frika	-1716
fundi	-1717
gemea	-1718
hamba	-1719
heria	-1720
hospi	-1721
ijiji	-1722
ilima	-1723
jakwi	-1724
jenge	-1725
jifun	-1726
jioni	-1727
jumba	-1728
kifan	-1729
kufan	-1730
kufun	-1731
letea	-1732
liman	-1733
limka	-1734
limpa	-1735
limti	-1736
lisha	-1737
livua	-1738
lugha	-1739
mekwi	-1740
menye	-1741
mtibu	-1742
nacha	-1743
nafan	-1744
nafun	-1745
ngazi	-1746
nzuri	-1747
ojeng	-1748
okuwa	-1749
olish	-1750
orini	-1751
resha	-1752
saada	-1753
saidi	-1754
samba	-1755
sanyi	-1756
shari	-1757
swali	-1758
thiri	-1759
tubia	-1760
umapi	-1761
wafun	-1762
walim	-1763
wenye	-1764
wenza	-1765
wisha	-1766
yopan	-1767
yumba	-1768
zania	-1769
zingi	-1770
▁Hawa	-1771
▁Maba	-1772
▁Maka	-1773
▁Matu	-1774
▁Maza	-1775
▁Mifu	-1776
▁Nita	-1777
▁Poli	-1778
▁Sala	-1779
▁Sama	-1780
▁Vita	-1781
▁Waku	-1782
▁Wali	-1783
▁Wang	-1784
▁Wasa	-1785
▁Wata	-1786
▁Wato	-1787
▁Wavu	-1788
▁Waza	-1789
▁bidi	-1790
▁chan	-1791
▁dara	-1792
▁hara	-1793
▁havi	-1794
▁inac	-1795
▁inaj	-1796
▁inas	-1797
▁jami	-1798
▁kari	-1799
▁kido	-1800
▁kiji	-1801
▁kiku	-1802
▁kili	-1803
▁kina	-1804
▁kipi	-1805
▁kita	-1806
▁kizu	-1807
▁kuli	-1808
▁kuto	-1809
▁mala	-1810
▁mali	-1811
▁mapa	-1812
▁mape	-1813
▁masi	-1814
▁maso	-1815
▁mazi	-1816
▁mcha	-1817
▁meng	-1818
▁miku	-1819
▁mili	-1820
▁ming	-1821
▁misi	-1822
▁muhi	-1823
▁nafa	-1824
▁nyim	-1825
▁sama	-1826
▁shug	-1827
▁soko	-1828
▁tuki	-1829
▁tuta	-1830
▁uchu	-1831
▁ukua	-1832
▁viji	-1833
▁viki	-1834
▁viku	-1835
▁vili	-1836
▁vime	-1837
▁vita	-1838
▁vizu	-1839
▁wafu	-1840
▁waka	-1841
▁waki	-1842
▁wato	-1843
▁weng	-1844
▁wila	-1845
▁zili	-1846
Vijiji	-1847
ashara	-1848
biasha	-1849
chakaa	-1850
changi	-1851
eknolo	-1852
fanyab	-1853
furaha	-1854
hakama	-1855
hakula	-1856
harini	-1857
hirika	-1858
hiriki	-1859
jijini	-1860
kisoma	-1861
lijibu	-1862
lilima	-1863
mefika	-1864
mekuwa	-1865
nadamu	-1866
natege	-1867
nikiwa	-1868
nisani	-1869
ondoka	-1870
ospita	-1871
pamoja	-1872
piikwa	-1873
rikali	-1874
sabati	-1875
silian	-1876
simami	-1877
subuhi	-1878
tafura	-1879
tajeng	-1880
takapo	-1881
talini	-1882
tihani	-1883
tikana	-1884
tikati	-1885
tokana	-1886
tutaka	-1887
wahili	-1888
walimu	-1889
wanaye	-1890
wasili	-1891
yewale	-1892
yoandi	-1893
zojeng	-1894
▁Anaye	-1895
▁Dakta	-1896
▁Hospi	-1897
▁Nairo	-1898
▁Wache	-1899
▁Wafan	-1900
▁Wanas	-1901
▁Wenye	-1902
▁anasi	-1903
▁atafa	-1904
▁atahu	-1905
▁bidha	-1906
▁chaku	-1907
▁dunia	-1908
▁imeba	-1909
▁inahi	-1910
▁inaku	-1911
▁inany	-1912
▁inato	-1913
▁kilim	-1914
▁maene	-1915
▁masha	-1916
▁maski	-1917
▁mgonj	-1918
▁ugonj	-1919
▁unali	-1920
▁viliv	-1921
▁wacha	-1922
▁walio	-1923
▁wanaa	-1924
▁wanac	-1925
▁wanae	-1926
▁wanaf	-1927
▁wanai	-1928
▁wanaj	-1929
▁wanan	-1930
▁wanap	-1931
▁wanas	-1932
▁wanau	-1933
▁yanaa	-1934
▁yanab	-1935
▁yanau	-1936
anzania	-1937
daktari	-1938
fanyabi	-1939
fanyaka	-1940
iashara	-1941
ilikuwa	-1942
kufanya	-1943
kufunzi	-1944
limanja	-1945
limkama	-1946
limtibu	-1947
liwafun	-1948
liyopan	-1949
msaidia	-1950
nafanya	-1951
nafunzi	-1952
ngekuwa	-1953
onyesha	-1954
shariki	-1955
ulikuwa	-1956
umapili	-1957
wenzake	-1958
zingira	-1959
▁Mabadi	-1960
▁Nitaka	-1961
▁Serika	-1962
▁Wanawa	-1963
▁Wasani	-1964
▁Wataka	-1965
▁anafun	-1966
▁anampi	-1967
▁baraba	-1968
▁imenye	-1969
▁inachu	-1970
▁inanye	-1971
▁inasem	-1972
▁kianga	-1973
▁linasa	-1974
▁linasu	-1975
▁maende	-1976
▁misitu	-1977
▁nikija	-1978
▁nyumba	-1979
▁serika	-1980
▁shamba	-1981
▁shughu	-1982
▁unalin	-1983
▁wafuga	-1984
▁walisi	-1985
▁wameji	-1986
▁wanaan	-1987
▁wanaen	-1988
▁wanafu	-1989
▁wanais	-1990
▁wanaji	-1991
▁wanali	-1992
▁wanapa	-1993
▁wanasa	-1994
▁wanaso	-1995
▁wanawa	-1996
▁yanaat	-1997
▁yanabo	-1998
▁yanaja	-1999
▁yanate	-2000
▁zinafa	-2001
▁zinatu	-2002
fanyabia	-2003
iswahili	-2004
jakwisha	-2005
kusaidia	-2006
lisafiri	-2007
taondoka	-2008
wasaidia	-2009
zojengwa	-2010
▁Wacheza	-2011
▁Wanashe	-2012
▁anasima	-2013
▁atafani	-2014
▁atahutu	-2015
▁imebadi	-2016
▁inahita	-2017
▁inajeng	-2018
▁itajeng	-2019
▁kinapii	-2020
▁linasum	-2021
▁vimecha	-2022
▁walioat	-2023
▁wanache	-2024
▁wanachu	-2025
▁wanafan	-2026
▁wanafun	-2027
▁wanakus	-2028
▁wanaoli	-2029
▁yanacha	-2030
▁zinacha	-2031
eknolojia	-2032
fanyakazi	-2033
hirikiana	-2034
hospitali	-2035
limanjaro	-2036
limkamata	-2037
livyoandi	-2038
▁Mabadili	-2039
▁mawasili	-2040
▁vinatege	-2041
▁walisima	-2042
▁wamejifi	-2043
▁wanaandi	-2044
▁wanajian	-2045
▁wanakuny	-2046
▁wanawali	-2047
▁watafura	-2048
▁yanabore	-2049
▁yanatege	-2050
liwasaidia	-2051
liyopandwa	-2052
lizojengwa	-2053
ospitalini	-2054
takayewale	-2055
wajakwisha	-2056
▁imebadili	-2057
▁walioathi	-2058
▁wanakusan	-2059
▁wanashiri	-2060
nayemsaidia	-2061
▁Wafanyabia	-2062
▁wanapatika	-2063
livyoandikwa	-2064
liwafundisha	-2065
tutakapokuwa	-2066
takayewaletea	-2067
a	-2068
▁	-2069
i	-2070
n	-2071
u	-2072
k	-2073
m	-2074
w	-2075
t	-2076
o	-2077
s	-2078
e	-2079
h	-2080
l	-2081
.	-2082
y	-2083
z	-2084
b	-2085
r	-2086
j	-2087
f	-2088
d	-2089
g	-2090
W	-2091
p	-2092
v	-2093
c	-2094
M	-2095
N	-2096
A	-2097
S	-2098
D	-2099
V	-2100
H	-2101
K	-2102
T	-2103
'	-2104
B	-2105
C	-2106
J	-2107
E	-2108
G	-2109
L	-2110
P	-2111
R	-2112
U	-2113
